11001010001000011111001111010111111111110101101000101101011111011101111111101110101101100100011111011100111000011101110011100011
01101110000100000101001100000001100100010010100010110001010110010111111011000100111010100001010011101011100100010010011111110101
11100100000101000001010011101100111100100011001001001001000000101000110101010001011111100101000101110101001111101110101000100111
00000100100110000010011100111001000011011101101101101101001010000101000111110101010111100100010000010010010000010001101010011100
10101001000110000011101101110110101101001000000100101001110000111011011101000011010101100000011000100110010111010010000111101001
10010110101000111101110001111100011100001000100000101011100000100111011001110011111110001100110101111111011000101101010110000011
00101111001111010110111111100111110001001100110011110001001110000101001110110101101001001001001100111001010111100000111001000010
10111010010111101011001010011000110010011010010111000010010111010110001001100110111110000011010000000111100111100110111000001001
00111110100001001000010101011101011011111110101001101110110111000100100100110100100001001101110101111111011111011011001110010100
10010100010100000101010001000011000110100100001110000110110101100101101100110101101100111110111100100011100000010011010100100111
00010110111010100001010001011011000100100111101001100011100100100011101111110011010011011001000101011110100101101000000011101111
01110101011101000101000100001010101111100010011011110101100011010011011010001100010110100011101000001011000001110110011011011000
01101000010010001000001110000010110000000000010011011101101100000010101001110100111100101110000101101110010011101000010100111011
00101011001101111010000010100000100000000011011110101101011111100111001100011001010010110100001110111000101110001111000000010100
10110011011100100101010001110101001100000111100011001001101011101100010100101111101111110101100110100111100000111100011001000000
01100111011100100000101101000110101001101010000110101000000111011010110101101111001100001111010110000011111101000001111100101010
10000111110011110010101001110101001100101001110111010111111110011011001010000010010010000111011100010100101010010001101100010000
10000011111100110010010110110001010000101000011110000101011000010011111100010001011110010101100111101100111101111100011101000010
11001000001111000111111101111000110110011110001010100000011100111110011000000101010101111000110101010111010111001010110110001111
10111001001111000001000001011101000111000001110100111001111110110111101000011111101110110100101111100000111101110001011101011111
11101001110110001010101010111011001111100110100000010111100001001010000001110111011100110010111101111001000101101001000001111011
11101010100100001010100100010100111111010011001110110110101010111111100100000000010101001100111001100010100001100001110111001010
10000011010100011010111111010001111011110001011101111000011011110001010011101001000001110111111000010111101110111001110100001110
11110000111001000111110101001101011100100001110000110111010001000010111010101001001111011011101011011001011100010011110111100101
10100110011101101000100001001001000011000010111000101001101000100010111101000011001111000000000011101110010111101010100101100001
10100100100100111010111001100011010100110111100000100010010101101101010111111111101101011001000010001010111101011001011001000000
11101000100001111000011110001111110100101010011001100100101001111010110010011001100100001000101001100110110000001110100110101000
11110111111011000100010100110111001010000100001011011011111000001101000000011000111000100101000011001001011111101100110000010001
11000000111010010100010111010111001011101000000100000110111110101001001110011010001111011101110000101110010001000001011110000110
00100011110111000001000100111000000000000001001011010010001110010001100101001110100001100001011100001110100010000100101011011010
11001110010111010011101010000100000101010000111101101100110011100101110011110111011011101101011100100000101010000010100000100111
10010000101110111011001110101011110010000110111100101111111011000101110111000100010010001111011001111111010010100111111100010011
11100110001100000110111100111111101010110111000000011000101011011000110110100110101010110001011110001000010011111101111101100001
10110111100110011001100010111010111001000001110111100101111111000000100111001011110001011100101000000111000111000001100100001010
01111100010111100100101000101111010001001000001001101101010111111000110111000100111101010110010000001101100011110010011110101011
00010100000010010110100010011111010011011011011010001000001001011001101011100010001010101010110110001010010010101001000101000011
00100110100100100111000100110101010110110100010110100110010110001110000110110001101110011101001101100000010000011111111100101100
10011111111010101101011101011100000101111100001001101011111101001000000000001001110001001111100010100001111000001000100110011001
11011101100110000010101111001111101001001100010110000000100100000000110010001010111000110100100100001010010111001001001110100100
11001000101000000111000011101010011111111110011111010011010000111000001011000110001000011010100011100111110100110011110000111001
01011110101111010101101101011000011011011100011001101011010100101100010101000000011011011010001111111010010011001010111110001011
01111110010111110100001001011010001010110101011101010100010000001001011001010001011101110000001111011010010001010011100110010010
00001101110111000010101110100101111101011001001001101111010100111100100100101110101011111111001001010110100101100010010100111011
11101011110111001101000011011111101000111011010000011111100100001000101100000011110001010001001110010111110110100011100110000001
11100000111000101001100001111111110010000000011110101011010001101000110000111010111000111101001010101001111100110000000111010100
01100111110110011011111000010011111001000100111001010000011010011001100010111000101110101111010101100011110110001101111011000010
10101000001010111011001111001010100001001101110110111100010100110001001000000101011010110010111111000101101110100000001111110101
00111101100100000011001000001010111001000111111001000000101000001110001000011000011010010111111100110101011110111010011100110101
10010011011100111000111111011011111110001110101110000010001001110110110100011111011011100000010001111011111100010100010111110010
01011011011001011110110101110011011111010111100111100010001010001001111000010110100101010101011001100010111001001100010101100101
00010101010100000100010100001110010110001110110111011001001100001110000110011110001110011111001010101100010101000111111101011110
10011011111110110000000100001001110100010001111100001111100000101001110110011100011000111001011111100000101001011000011110101000
01111100101011111110000111110010101100101110110101010111110001011000111100100001111011101111111101011100100111111111110010101001
10010011010110111101111111110001100100111100111100000011110100011100100011010110001111111010111000101011111101011011110011100100
11011000001011001100100010010011011010110011000000001110000001011000010110000111010011010110111010000001110011001011010101001110
00111000100110111111110110011001110000100110111010000000111010010110101111100100100001001001110001111110110100101001010000100011
11110010011101001101011010000100110101001110110011011001000001000100101101110000100101101110110111101101001011100111101100000011
01000100010011001100100011100011100100001001111111001111101100010010010010101011011110010100100001010001000100110001001001000100
10011001101000011100001000110111001000001000101110111011010001010111100100001101000001110001111000011001110110001010100111010110
11100101101001011110001100000111010011101011000110101000010100001000001000000010011110111111011001000111111101110100001111101001
00010011010011000001101011100001011111000111101101010000010101101011010010011010101110101010011001001101001101011110000011001101
01101011000011100110010110101001001011101010011001011111101011000110111000100100010111101000101011100001101101111110001011000011
11010111011010010111110010100001001101110111000011001111100011010100011101111001100011001101011000001010111110111101100011011011
10100101100111000001110010101100111111000010001000101100010001101001100010011110010100101000011000101000101111000100001011001110
10010000110111101110000101000011100111000011000111101011111111101000010110100110100000101010000011001101110010100110100000000000
10010110001111001000100111111010110100110011010001010010111001100100101101111110110111111010001110111001101110110000100101000111
11110010110101101011110001000110101110111101110101101000010101011101000111111111001011010001011011100101001110011000101011111000
00111111100000011101001000111101111101011110000101000110010101101011001000110010100100000010110101001100011110011010110110101001
00100110000111101010110101101111011111011100101100100000110010101000010011100101111010111100110110011101010010101100001110111000
01010000111100110100111001110110011111001001100000000001001000111011110110001100100101100101101111111011001011100100001101111110
11010110001100100101101110111011001100100010001011010000100110111110101010001001011011101101100100010010000100000100101011010001
11001010010111001010101100000110111110110010111001111011100011101110000011000000110000001110101111010001111110101010011101000000
11100101111010111011000111111011110010001101111100010101100001111101111000001000001010001011111110000111100011000110000110110000
01011110110101001111011111101100111100100000100000011000110110110001001101010011010000100011100001100100111001111001000100000100
10101100101011011101011010111010011100111000011100000101010001011001011110000110011111000110010100010111110000110111000100011010
11101111101101011010010011001100000100101000100001101010111101000011101001100011101110000110100010101110110001000011000010111000
01101001110010000001001011000100101100010000011000110011011111000011010111010110011001100111001010000101111001011011111001111100
10101011100011110010101100010001001110010100100110110111000010100000110000011001110101010111001100100000110011111010001110110110
01100100111011101101111011100010001110101010100011001110010001100111011101110001001010100000011100101000101110111000110010111001
10111001001000101000001100110101110100001001010001100011011110010000000100111100000000011111110100111001010001011101111000100100
00111110101100010111111110000100010001111111111101110001001101001000110111000100011100000100001111000101100001010000111011011001
01010001100101110010110110000001010000001101010000100101101111101101110000100101110000010111110111111011111101100000101110101011
00010100111110011110100110100100110111100001101000001001011010111100010011001111011110001101110110001111100000111110010010010110
10111100111000011000001110001100101001110000111000011101011110010001010010111011001110011000001111011101111011110000111110111001
00011101011000000110110010000000100000000101110000001010100100011110101111000010000100110100011010011000111000011011100000001110
10011010010100101110111000001101101111010011110011110100001111001001011010011110100001100010010001100100111011110111111100100001
10000011011111011010100001010010000011010001111000011011000010000010010001010001101110110110011000111001001000100010010100010010
10011000000100011110011001100000000001001111111111000110100011011011101011001100001010100111100010101111111110010001010010101100
10010111110000000010110011000100110111100110011010001101100001101000110010011111100100110001111010101101111101101100010011101011
11100000110111011100100111010110110111000110011000011100011100010111010001000010100100010110111111100001000011001010010010100101
10010101000110110000011101111110011111110110111100011101001001100000101111001001000100110001101010101110010001001010111100110011
01101100011110001110100010010001100100010110011001100101111011111101111110000110100011011010100011101001101000011010111001110000
01011111111100000101111010100101101100110000001110111001011101111010001101111110010001001110100000000000000011101010110001111101
11001100100111101110111110001110111001100110001111011011100010111110111110101011011001100101011010000110101010010100010011010000
11110010100100100101100100111010101001000010000111101011110111011010001100111011110011011001011000110010110110111011111001011110
01001110000101010000111011110101111000001010011010101000110000000111110111000101100000000000011110000101000110100001110011101000
01110111011000100101100010111111010011011111000110010110010101000000010111101011100000000100010111100101110010101000100000010010
10111010111100000111111010001001010001101111010101000011101100100011011100010011010110010000010101000000111010111011010111100110
01110110001011110001010110000110010101000011110001000000010111010010111111110001001000010011111111010110000001011101010010000011
10101100011100100110010010111110010111100101001010000011001100011111000000001110011010011111100100000110111100011101000010000000
10010000000111110100011011111101110100110000111100110011111011111101010111000011110011110110101010011110011110011100110100000010
11010111101101110011110001101110011001101000001110101101101011111010010001101001000101101101000101101101000001101000110100011100
11010100110100101010100100111110100001000110011111001011000100000111001010011001111110001011011000111000101010110011100111111001
01010010001001110100100101001110100011101101001111001100001110111010000000001101000001000011111101001001100000111100110100000011
01110111111110001000001110001000011010101101011101011011010101110100101011011010000100000000000101101111000010110101101111001111
10000000101010110010110010001011101010010110111000011101100010110111000101111100111011100011010111010011001000001100101110011011
00110101111101111000110000011101111000011100011100111101001100010001111100001110000011000110011110111011000101111100011111000011
10001000000110101000001111001111110001000000100111011110100111001000111000010010111000011101100001110110000110110100101010011100
10110101111101110010011010101011101011110101001000011011101011001011111110111100000100110010010111100110100000000011111111101000
01010110110010010100100101001111011110111001011100001000010110110001001100011001101111000101011100011100010011001101011111011010
01111101000010011110100011010101100010010011100111111110001100000010001111001101000100111000111111110100010010010000111011011000
00100100110000000010000100001110110110101010001011010001001111011001011111011110010010011110111010110110011000000010111000100010
00000111110000011000100001101110101101101101000010011001001001010101010101001110110110110011001111001001100001010110100110000111
11011000010111111111000001100001101101011010111111101010000110110000011001010101001001010110101100000011001010001110000001001000
01001101110001111110100110010111010011111011110000001110010011001010101001111001101010001100010111011001110000010001100111011101
10101100100000001111111010001000111000111100101100001111011010111010010000100000001010000000011100000011111110011110010010011100
01011101100001100010000100101110010100100010000100001010101011000010001100010110101110010001010101101101101010110111001101000010
01011000101000111000111111111000100000101011000100111111110101011011000001100110010000100110011110100101110111100000111011001110
00010011001100111000010111001010010000001010110111101001001010000101111000100011110001010111111000111010111000110010000000101110
00010100010100101100010010111101011111001001110010111001010110111001110011110011000101001010100110001011000111000100100011101010
10110101111001101011000000100001000010001100111110001100001010101110100010111101010100000001110101000000100010100101101111000001
11101001110000000001111000010011011011110100101111110111100110010110010010011001001100111110010011100110110110000010101111101111
00110000111100100101010001111110011000111100111010000001101000010010010100011001000111011110000001111100000111111010010111110011
10010110011100110101110100111011001000100001010001011100110001000100011010011000111000010110010011100111111000111010110111011101
11010001100101000000011011000001110110100001001110010011110101101111010010000100010000001110111111001110010111011100010101010011
10001000001111100010100110011100010111000010001001010111001100111001001110001100111110111110011101110000110010001000010011101000
00111110100001100000100011011110110111010110101000001110010111110111100001000100100000010011111010101111011010100101101101110000
01111010000110101101000100100011011011100100010001010101110100110010001100010001101000011001010100100010011111101101001101100101
10010100011011100011101100011010000100001010111100100110110001111110110100110101110100101011001010001000000011101110111100010000
00010100111100011111011000011011000001001001100011111100101101010101000110011000010000111011100010011010000100000110111000000010
11111111110001111000011010011000101010101010100000011011001110101011011000110110100111001000000111100001010100010101111100101111
10010011111001000001001010111001000011100100011001101011110010001010010101101011111100101100110010101100010000110100110101111101
01000111000001101101111000111011010111000001100111110000110100111100010011101110011100011101010001011001010110100001001110011010
11001001110000100101010011101100011110101001100111000111001101110100000010000010110100001010001000001100101011000110101111000001
11111100001001111000100000110111010010110111101000011010011000001000010010100000001101010011011011110000001100010100101101010011
10100110010011111000111010011010001101001001001101011110010100000011000110100101001101010010001001010110010010010110001101000011
00110010000000101101111001110000011101111001001101011111000001100101010011110011001110101010001011011101011000100111011100100011
00111101000111100110001111110001111010000101001101110111111101010100001011101110011110100100110010111011001011001101001001001101
10110111001010011010100000010010111110001110010010011100001100110010001011100101000111110011000011110010001010010100010000010001
11000000110110010101011001001110011000111111000111000010100000100111111111010010011100111011111000111110010011101010111001011001
00001111110000000011000011011111011011001100010101100110011110010100100110000110001010000110010101011100001001000101011100111111
10011101011011110011010110011000000101010100111010111110100001000110100001011101110110001110011000011101111010100010110001001011
11110100110000011001011100001011110001100111000100111110000101010000001110101000101001000100000100010111001100001010110000000001
01011010010110011100010100000100011100110000111101011010001110010011011100110000101011100000111001001100111101000100001010000101
11111101110001100011111111101110111001010100100000001101111001110010100011101110100000111110101101000100100010101111010100001000
01100011011011001010111011100001001001101000100010110000010010101011000111000000010010100001010010111000101111100111011111011101
10100101101010100000011000100000110101000001000000111001110101100100000101101000101111010101101000101000111111101110110011101100
10000111010111111010001000101101101000010101011010000001111011111011100010101110001101011101101000001110000011101101111001011011
11001110001111101010110110111011101111001010000010110101001110110111101111111111110110111011011000110001111100001010101110100001
10010011010100111110010001111111010000111101011100100100001010101100101111001010001101001111010110001100111000110000110110101011
11010110100100101100001100000010110111110110000110011010101101111001001111111111100011111000110000001110100101101000101001111001
11011011001100001010100010001010001011111001001010001011011100110110000100010011011100101011001001101111010011010001111101110011
11001011000000001110001100011111001011000000100011011000100011100000001100001101011001110011110010111100110001001111110010101100
01011001000011110111010101111001101100010000001101111011000110101000011100011001101000011000011010110100111001000111111011111110
10100110111100011110011111001110101101011000011011000101010011000000000010000010000001011011000110011000110100001100011000111001
11111010110010010000011101001100011111100100011010110111011001001110111011110101100110000101100010101010110000010010101011011101
11110010001101110000010110001111101100100111100000110100111000100110110010100110011100101100100111010011001110111100001000111011
10010001001010110001001110001000100111011101000001111000010011000111110010001101110111000001001111110100011010001111010100101101
10011111110111111101000111001100000101000010001110110110010100100101010000111100111001111100001000100111010110011110100110011101
00111010110101100000110000000101110100110100010111000110010010011011110111011011000000111011000100001000011100110011011110000000
00000000100000000110001100001100010100011100101110010110100010000010111111001100000010001010101011101000001101100101011000110001
10110010101101110001001100001001001010100110001011110011010011111000010111010011111101110110010011100100111101101001000110010100
11001010100111000011000010100000100100100010100110111001001111000101011011101101100110001010110101111010011101000101000000100011
00110010000100111111101110011101000100000111010010000110010100101001111011000000111101101111011000011100110010010011000100001100
11100010101000001010101001100100010010110001100011000011011111000101110010010110010111111100000101001010111001111011110001011101
00111100011101000101110000111011010010101000001101111001000011011100011110000000010101111100110110010111000110111110000101111110
00100110110000000111101000010101000100110101111011101101110001010011110110100000101110100111110000110011001011001011110100011010
01001101100100110001011001000000010011111110010000101111011000011000001100010001011000001100110100010011101011110011000110111111
00100011101000111111001111111100011100110111000110010101110101011010001100001101100011110011001111100111110011100010001011011111
11110010101001000000111111101100010001001110101011101011000100001010000000111010011101001011010110111111000110011011111100011010
11111000100010011011100000011000010111000110111101100000100110001010101110011100011110000001001101011011001100011011110101001100
01101101000100110110000110111101101011100001001101110010111111000100000111000111001001001011101111111000110000100100000011111110
01110001100001110011010111011101110100111001000101111101110010110010111110110001101000000000101011000101001010010000010000110100
00000000111100111101100101101101100100010000100010110101000011001110010111000011111011010010011010001001000111111110011011011000
01010111100100010010011001011001101111010010101010000111111100001110110001000111000011010011010100100101010000110101011010100001
10010000100100000000111110010110101111010111101001010100101001000011101000110011011111000110110110100011111001111110001000001111
10110101101100011000000110111110000110010000011011001011110110011010010011111100001101110100000111001011110011011010100011100101
11001111110011001010000100111000000101110001000110000100101001000110000101101001001111100010000110001110100110111110101011101010
01000101010001011100111110111001011110011010001000110110111111010110101101010011011000111101111101110101000000101010101100100110
00110110001000100110010011011001000011010001100000001111010111010110011110101000110010001001001010001100000111010000111111111010