01010110011101111110000100100010011001111101101011111001110000111111001010001111101000110001100100101010010100100101100011011111
00010110100101001000110100001101011011111100110101010011100000111000111001101000010111110011101110010001110010011001010001110100
11100010101101101111011110000100011101000000001000100011111101101010011101110010000110101100000101011111000111001011001101101101
11111110010100111000110010101001110010100000111001111001001110101100010101011100111101100001101011011011111000010111111001010100
11001000110110001111101101111101101011100011110110100100101101010110111100100000001111110100101001100101110011000100101000000001
00110110101000001000010011011101111100010110111000100011100010001010011110101001001011100000111000000011001111010001011001011010
11100110100000010100000101101011100011111101001010000101001010010100001101111010001001100101101001000000111101011110011000101011
01100100100100011110100100101101100100110101010010111111000000001001000000110101101110001100010110100010011100011001101010011101
01110110000111001010110101111001100001110101110000101110100111100011100000001100000000100100110010110011001111001111011101111100
11111000111111000101011100000000101101011110111101010001001011101111000101010010101010010100000010001010000100011000010111001011
11111100011000111011000010101000111100110110100011011000010101001110100011000110001110011011011110111001000111011011010110101010
01000000110100001101110001011011100111001011010001100011111000110011110010001101111001011101011111001000000001111101001000001110
01001111001110000101001111001011010011111111010001001101101011100011100010011001000010111000010011011000001111111000010011100110
00111111000010111110011000000010000000101010011101000001000110001010111101000100111000001011001101110000111001110110111111001101
00111100101110111110011010110001110111111101000010111000100001001000100111101110001100010101011010000101110000011111100000010101
00001111110100101101001111000001001110001110010001111110101110001110011101111111110100111000000111111001001000000110111101011010
01101011001101101110111010001110111010110110101011011010011110011001001000110010101000000101011001001101000010101111101110101110
00011110101000000111111100010110100000000111110000110110100010101001000011000100000010110010000011110100010110001000001100010100
10101001000011010100110100000000110111100100010110011100011011011110100110011111100001001000000111011110110001110001101010110101
01101000001110110101100111001001111001010001101100000000000100010001011110110001101100101000011001011011110010011110010001010001
00110001001010101000001101001010010100101010111111110111110111010000010111000110001010111010010110110000001101000111111101000010
00000010100110110001001100011000110011110101001110010100000110100000110100100110101010010010000111001011100011011101010101011011
01000111001100000011101100001111000100001001111011011110000010001001111011100101100001100000100110000010010111011100100010010101
00011111101101101001100010000110001000100001101111101011000010011000000100100111110000000100010101001110011101001111101000101011
00110101110010010001001001111101101000011000011110000101010110000000100110000101001101101110011101101011001101110110111010111010
11001100010100111111100111111101111100111011110101001011010001110000001010010101011111100100100111101000010010010001110001101000
01011010010110111010111011101100100001111011010001100001111111100011000001001010111001011111111010010011111010000101110001010011
01110111110010100000111111011010101000100010010100011000001011010101011001000011111100101001100110110000010010100000011000010000
11110000000111100000001100111001110111010111001100110011010100100111011110010001100010101111001100010100110110110010110000011110
11110101000010111100111101010100001111111010000110110010110000000011001010100010110001100011110001000110000101011000001000110111
00010100001101001110101011101100000100100001110000001110010010110000000010101000111110001011110111101100111110010100101100110111
10001110110110110100111011011110000011001000011110011111111111110001001000010001001101001010101010011010111100011010111001111000
00010101111000010010011000111111111100011111111011000001000011010110011110001100111111011101011011100101101100010101110001001100
00010001010010101101100001000111001110000011011101000000110011001001110010000001001011110011010001000101110110100111111101010110
01001000100111000001001111101110000101010111100001100011001000101000110010111111010010101001101001011001100011000011110100110011
11000001101110011000100101001000110011010010011011110010101011011100100001011110011001111110010111010000110110100001100100111101
11100010101101101111010101110000100001000110101011111101111001111101011100011010110110111111111010011011100100101000011110111010
11010000111000111111111110100100011011111000110010011001111010101111011110000001000111111111000111101010000100111101111110111100
00111111111011110100010011010111110011001111011000100110001111000010111011100110010101011101110111100001011100111101001110100000
00101101111101011111100001100001110001101001001011110111010001000001110101101000111000110011101010011001010011001000000110000110
00111000111100111111100100011000111110110101110111111000010100010110110001100011001011010000010010011110000011101110101100010111
11100000100101000110001101000001110101101101000100010101011010111001111000100100111100101000001101110100001111101010001001010100
11110000111010011010010110101000110110010001110101000111100110101010100101101010101110010100001100010000001100010111100010001100
01001100100100110000000110100010110001111111100110101010101101010100110001100001011010111100111000111011110111000111011011011001
10100000111100110010001111010110000011100011100010110011001001000101110101000100100101100110000111110100110010011100101001100101
00000001011100110110100000100000101110111010010101110010000111001101101111110011111111111101010111111110001000000011011111110100
11000010101100000110001101010101011100001011110001000010000111001000100111101001010001011111001110110100011011001010101111011100
11000100101101110010111110111110110101001100111000000110101101100011111100010100100010101001111111010101011101101010000010001001
00001111010011010010101100101000110110011010110100001000110110011010110000010101101010011100010001100000011000101110111011001011
11011111101001110111110011001111000111010000011111110000000100001010000011001101101100000011011110001100001010011111001010100010
01101100011110101000011101001111101101000000100101011100101111110010001111111000010011011110000001101001000001011100000001100111
00101111100011010011001100001111011001100101101111110010000010101000011011001011101111110011100000001011111011111011001110011110
10011000100010001101111100100011100111000110101101110110111010010010110010101001001101100011101110101111111010000010001100100100
10000111111001010000110100010011010101110011010101001010100011101001001111101100010110101001001111010111000000001100100100001000
10000111101011010011110111111110100101001110101010000111001100001000001000010111001001010011101011111110111101101110101111110010
00101000011101001101101100010100001100010100011100111101010011101110100000001110101111000001111111011101100110001011110010111111
01101111010101110001011111101111000000110101110100010100001001111101000000000001001100111110110111000001100111101010000010100101
01010111001111111111110111100000011011110110001001000010100000010101011111001001111010111000101010000101011001011001010000101101
11100111101001011011000000101101111011110110001100010000100011010110001001000100001000000011011010001011010100100011011101000001
00011111111000101010100100110110001000000011100010100101011011000111110110000010110110110111111011000011011011100001010101110011
01001110001111000001001011011100110001101100101100100001110001101001001010011010100110000011010100110111010111100111000111110000
00001011110110101110100111100110010110010111101111111010011110110011101101110101101111001101100111110101100011011101001110010110
11111100011011111100011001100010111000101111001110011011000111000011000000011000001101111111001111010001101001000111001100011000
11000110111110001101100101001111101101101111010010111001111000000100110011100000110110110011111111111011000100101111001001110100
11001110111101110101010110011111100100010101001110000101000010101101011111011000000100101110000000111111000111011000100101010010
00010000111011110110110010000101000110111101011101010100001100001101001111011011110111100001110111110011001001100010000110100000
00111010010110110010000010001001010000110110011111111001101010010100010100010011111011100000100000110000101100010110011000001011
00000011010001010110000011001011010010111011001111010001011000110011000000111110111000010111110100111000110010001001110100001110
10110100101100011001010011010110101100111111111100001110110000001000010110111010101000111000010111111101110011111100100010101000
10101000001111010101000100001000100111100100001100111000100111001001010001101001111100010000001000000011011110110010101100011111
11110001011000101111010110111010110001000011001101101000101100110101010001101001100111001011110000001011001111000101001100101100
10011010001101110011101010000010111111110010000010101011101100110110011000100111111110001111111101100010101101110100100011011101
10010100111110101100110011000010100100111011100011111001011000110011000001011010111110000001101001011100000110111011000110100000
11101001111010110000100011000100111101111111010110011111001111000010110101000111110101100110111011001011101000100011111010111100
00110111101100011010010110000010011110111011010110101110011100011101111001010110111011011111001011011111011101110010010101111001
11111000001000001110111101111011101110100111101111001000110101011000010010110010001101100011101110010010101011111110110100111111
01111010110001110101111011001000011000101100110000101011101111010010010111110011011010000001101100011011010011111111101111101001
10011010011001010110110011110110101100110011100010011001001000010111001101110000111110100010010011001100010111101110000111001010
00001000100110000011001010110111011000010110111000100111010100000000111100111100111101000010000101010000110000100100001011100100
01100000000000100010010111000000001001110111001001010111010010101011101101111000001100010101110011011110001100010110000011000111
01001001101001100111010010110000110100110100001001000001001110100110111110001010101000101110010000111000001011100001010101101110
10001010010010101001011111001000110011110011010111011000011000001000110111110110010000000010000001010100001011001101101010011111
11100011011000111000010100110101001011011110100000010101110110111111111111110111100001011011000100011111010011101010111100000011
01111010111100000101001111000101011001101111010001101110011111010111001001010011000101011101000000001010010100011110000001111000
10100001100101000110001100000111100111000101001000110000001111000111110011010100110100101011010101000111110011101000100110001010
10100100100010111111101000010000011000110110011010111010111000000101101100101100000001010011001101110100100000000001111011101011
01111010011110100001100111000111111110111001001010010101100010010000111101001100000110011101001000000010110000111111110011010010
00001100000111111011111011010101010000001111101110001111100100001000110001000111011111011000000001011011100010001110101001000101
00101101111000110111011110010001011001011000111000100011110010110100100001100000101001101110000010011111110000111100000110111111
00100101001100010011010101010000010011010111110110011001101010001011001100000000001101011001111011101101010010110001111100011101
10110000010101011111001101110100101001000110111010101011101011011100000101011001010110111100001000100101000101101100011001010100
00110000111011010111111001001000101001011000010010111100001111111011111010110000001100110001000000101011011101011010010001011100
01001000101000010011000111110001111101100010010000010000000101110001100111110100000111111000001000011010100101100001001100010100
01001011010110111011101001100011010010000100111101011100111100101011100010001001100010110110101111011110010001101110000101111110
10111101001001001111101111000010001100011000111000111001001101101110100010111100110100100111010011000001110111000001110110001101
01100011011010001011111010100000111111000011100100101111000110011000000111001010011100011011110100101101101111111100101110010011
01010010111100111100110010001111011110010101101100111101110101000100111011110110110001000111111011001011101011110101010100111110
11000010000111010011011000111100111101011011101110110100101110001100110111010100001101000001011001000001001111011100101101000111
11011110001001000000001010101011001010010101101101101011111110110001110010000111110011001000010011101110000011001001111010001101
11010001110000100111110000000011010000111110110110010001100110101110110001001000101100011010010010010110001100011101101100011111
11100001110111000000100011001011011001111110000110010101011010000011001000100000011011111101100100000110100110100000010011101001
00011101001101001101101110001000110001110010101111101001100111001001111111100111001110010001011000100011100011011101110010010010
10011101001100001000010001101100101111101101010000011111011110101110010100011000100111111101000100001001101111111001111000011110
11010010001110110000101010001111001001011011010000111000111000101111100011110101101011010101100111100001110000011000000101110111
10101011101010001111100011111011000100010001110111001101111000010100111100100001000011000001110101010000001100010110001011001000
01110011101111000010111100000111100001101011011101110011000000010110110100101010001101101001110010101101011111101000101101100111
00000011001011010010110110011111010000010100000101001111010111100011111111100010011000101101010101111001000101111111111010001010
10101000000100100110110100000001101100100101110001111111001000000000011111111111101001100001011101001001111001001010110010010011
11100101001111111011101010001110010110100010101000001000111110101011110101011011001011111101100101100101000101001010001101000100
00100110010100110001100101111001000110011111110000001001101110010001111111110101101011001010110000101101011011000000001111011001
00010101010100000011100100001000001110101111101011110010001111000011010101011110101001111100010001111101000010000111110101111011
01111110100010111101100000111110000101000001111101010111000001101000001001001111111001000110111110010101010000011011010000110101
10010111111011011010010100011000100101011000111111101100010111101100010000111001110101110001111010100000111101111100110110001011
00110010100001111011001001011000010111010110010100101000111101100011010001111001001110101001111111000110010100110001001100100111
11110010111111100000111000110111111000111001100000101011011101110011000001101101101011101101001000110011000111111000100100010111
01110011011000110111101010010010010010101001011001100100010000010111000000110001110001111110010001010100110100110000111100111100
01100000000011110011011101000101010010011011000111011110010010110111011111110100100100011000101100100010100110110111001101110011
00011010111011010010110001010000110010010100000001010010011001001011110011010100011110001011101010001110101100111001000001110010
01000011110011100000101101110001000010100011010010000110101010000011101010101111001001100001100011100010000010111111010011011111
11110000111000100110100100100011111011000101100011001100011001010110011111111111010100000100011111011010100000111010001101101011
01001000010101000100000110001010001010010100001110011111001100010010000100011110010001000111000110001000001101001010011010100000
10001111100001001111100111100100100010011101001000010110110110010111011000001100101101000100011011001100100100100011011000101110
11110101000110011010010000101110110011001100101100000100101110110011101100011111100101001111110111100011010001011101101110011000
11001110010001011101011011100001100001000100001111001110011000010011111000010111000010110111001111001001011001101100100000011011
00110000110101101110100101011100101111000011011011010100110011001001001100110001000011010011011111011110111011001111000001000010
10010001000100100011000011111001100101011100111100010100001000100110001101011110000000101001001110010100000011101010001011101010
01000011011111110101011011101100001111010001100101010101111011010000111011001110001110101100000110010000101001010011101101100010
01001010110100101000010100011000101101011011100000000100001101101111101100110111101000111000000100111011101001110000010101011011
00110010010100111110011110011100000111011001111110100011000000001101100011001111010001001101011011001110011001100001110110110011
10000110010100111100000111111111011100111111011001001010101000101100110011111100001110010111111101110111111101110101010010000110
10000001111011011100000101100010100111001000100000010011000100010011000010010001111111100001000101001011111110101010111100110110
11011101001111001001001010000011000111001000001001000111011100110110110010100100111111011011100000001010011111010010010101000010
10100010101111011100111001110100000010000001100100000111100011110110100111011100101010101101111001010000011001110100001001011010
10100101111001111110000001010000000010111100011011100101100110011101001110110001000111110110001111010000110010000010001110110110
10101001001100001001111110100110111001100001000000111111100110100110000011100001110101110001010110110101101101101110101110101010
00111100101101011010111100101000110000111000110001110001010001111101010100001010110100000011011011100111000110101010011110010111
11011110011100000001111010000100110011101110011011111100011101011111000111111110010101011111101011011101100110011010001111000100
00100101100001110110111101000010110011100001100000010100001100100010110001101011100101100111111110000000010000010010110111101110
10101001000001011111010001100010100110111011101111100111000111110001111011010111000011110101100000111100111010100110101100110110
01011000011000011100000000101111010101001111111010010011011010000001001011011100001110011010100101010111110111101010000101001010
01110011011000101010010100111110010101100100001101101101110110010001100111110011111111001100000010001110110100110000010010011100
00011011110100000001001100010011101001100000111110101101000001110001111010010110001001111110110010010111000101001111001000011100
00001000010001100111100011010000010011111001100111011011100100111101100111100101100100011101000110000010010001011111101001111001
10111110010001001011011010111110111100111110001001011000101001110011011011001000000111010110111101110111001111100110010001000010
00100100001000111001011001011000010000101111010000011000110010100010100010110111111001010000101000110001110000000111000110010101
11111001100010011001110011011011001111110101011100011011110100111010111010101000100010001000010111011011101001010000001111110000
10110001111110011100001010011001000001110101101101111100011100001001111100001110100100011010001110011001111111010101100011110011
01011011101011110101101100110100011101011011000001011001011101100110000111011111101001010111000011010101000001101011100010101010
01100101101001001101000010000101000011010100110101111110001100011110011001101000000000000110100111100000110110000100100010011100
01111001001011011000110001001110110000101010010000100110111100000011000011100001000101101101111111011111110011111000011010010100
11110001111111101011100000010010101010100000010110110001100100001000110010111101101000101010101111111110111110000101001110011001
10100000000000010101001010010111011100000001001010110000100100011000000001100100111101010101100111100111101110011010001111011110
10101011011010010101001101100111101100111000100011100100011000111111000010100001000100100111010010011111011011010010010001000001
00000111110100010010100110001111111100001101010100101101101111100000100100101100011011100011101110100011000110101101000000101111
11010100100100100000111100101111101010100000100011111101110000001111111000111111100000011011111001101011010100100100000110110000
00000111000111101010100001100001110011100001101011111100111110011101100010110001101111010000000001111111111110000010101110110000
01000000111011000110000100101111011101010110011000001100110100101101111000101001110001010010010011011100100000100111110000101001
01000101100011010010100000110010001101111111010100101010011111001100101100110010111000111110010010101001110000011001011101011110
10011111000001111000000110100101011100001100001011000011100011010011011101101000110001000001011100110001010101011100010000010101
00010101101111111111010101111011001000011000100000010000010101110110000100011100110111110000000101000101010011001110001011011011
11000110010100101101000101111111100110010011110001101111110110001100011101111001110100100010111001101100110000010100100110010001
10111011111111000010000101111101000011100100011111100111101110011011101111001101101011001110010011100100101000011100011100101011
00001001011000011000101101111100000111101110101110101111011101010100000111101110001000100101110010000010001100001010010010110101
10101110011110001001001011010000111100000111001111000111100110001100111100111000011111001001000100101001111000010000010111011010
00011011101011101101010000110000111001111001111011000001011110111101111000100011001100101101010011001100000011001011110000010111
11101010111000011000100000100110011100011101010011110011000011101001111101111010110100110110101100100111100110010000101100110011
11111100111010101100000010011100000111101111101010110111110110001010000011100011111000010001101000011000011000100110000000101111
11110101101000111100011100000100011110100010001000011010110100010000100011111000001001011001010111111101000010110001001101001000
01110110001111111000011010000011001000111001110100110010000000110000011101111100110000011101001101010010011001101000101001011101
00101110010110001100010100001011110101011001100101001000110001100111110110010111111101000001011001001111101001101010111010101110
01010010110001001101111000001100000001101110010000110111000001101010000101001100110111101111011011010100001001010001100111011101
11111001101100101010000110000111100010000110101110111110011110111101111000110011000100000010101011011010100101111001010100101001
11110101101101111001010101110111001101010101111010110110000001011110001011111110011100001100011101100011101010010001010010110011
00100110111101011111001000001011001000100101111001100110000010101000000000010010001101101110110110001000100000000001101011111101
00101110011111001110110001001011001110110101010111010101010000011110100001101011000011100010000110001110000000001110101101100000
01100000111100111011001001000001010010100100010110101010010011111110001100011110111111000001110100101011100110010101011011011101
00011111110100001010010000001100101111001101011000010011001010110000011110000101101101000000001100110111000110110101101001110110
00110010100001000011100011100001010000000001111101111110000110101100011000011100110110000110111011100011000101101100010101111001
11000101110001001110100110011010111011110000001111111110011100100001000000110001001000000000011010011101110101111011111010111010
10010101001010100011010010110001000010000111100111111010101010100111001011001111000100100110101110110010100001101101011010001000
