01010101100111111100000110011110100001111110100110001110000001011001000101110000011101001011001011111101101010001110100011001101
10101100011100100001001010010100011100010111011010001011011000001110010111000101111101100000011111001101011111100001000000000101
00000010100000011010111101001000111101001011001000101101000110011110001110001000111110111110010011100101001101000010101010110111
00100001100011001000010001000011011000010000011100011011011101111101001010100000010001101101010001111110111011110011000010010000
10110000100101011010111001111010001111000011101110010101000011101001100110100011101110011100101001100011111111101101111001000001
01100011011100101000011000111110011110110110011110111101000011101101101000001011011101000101110111010110100011110010100111110111
11011111000011100100001111001001110000111001110011011011100111110010101011100110011101101010001101010110011010101011011011100100
01111110000001101110011010000101111000111011011000011011111111010100010101001111011101110110111110101110001110001110001110101011
10100010101101010001111011010000001111010111000111100110111100110011011010101111001011110000111110101100100001001001100001110110
10101001000010100101111111110010011101001100001101101011100001100110000110010000000110000010001011110010111001001000001100101100
10000000010001000101011011100111001010111000010001100101001010111001101010011011101011101111100011111000001010000110011010111010
01000111010110001000010010000110000110110010000001100001011101110110001010011111111011110000000000101111000001110100000101110011
10111001001001010000111001011011011001100101000010000100100011100011011110010100111011010110110010001001101000001010000101010110
11100110110111010000110100000011010011001001111010011000100010010010000001011010101111000010011000111111001010011101011000100101
00001000001100101110110111111000011010011001011011011110111111010101110110100010000111001101100001101111100111111001100111101110
10111110010110001111101001110010011101110110111010111000111101111100110110000010000110110100110101001100101101000001110011101110
01010000110000111001100110111101010110000001001010101111100111101000111010001000100000111001010101100110110001000100101110000100
01101100011111011110100010110110110001011001001000011011001110001111111001011111011000001110011001110110100000000110101100100101
01110110101100100011001000110111100101011010111101101001000001000110010001100001101111010111100000110100000011111101110000010000
10001111001110011110101100110000000101000010101011011100010011001110111000010001010101011111010100011100100111011100010110011111
00010001011010011101110100010101110010001000101001110001100100110001100101001010110011010000010110111101101011111001101000001111
10100110001100011100100111010110011001000111011001010000100010001010100111111011001011000110111000001010001101110000110010001000
11000101100000000110011111110001100111011111001110100110110010110010110001010110101111000011011100001001010000101011101000000100
01000111101001010001101010111110100111111101011001010001101000110110110101010100111110101100110111010011011000001101011101000001
10010000010101011010001001011110100001100001110010100011110011001010010100011111010001001011100010011101110001101000100111000011
01001011000001011010000011000010001110111001111010000111000000000110001111111111100000111000100111111110001100110101110111100000
00000001010110100101000001111110111001110110010011110110000100001010011111111011010010101101010001101010010110100100110110001101
10010111111000011101100100001110110001001110001010001001001001100110010110101100001010010111000000100101110111110110101010110111
10110111101000110000010001001101101011111100101000000001110110111010000110000110110011101011011110001101010001101000010110010000
01001111100111010001111101100110001111011001111010111010001111111001101110110111010100111000100111011000000000010001001010100011
11101010110110111110110010110101000000111110000001110011011110111001111101111110100000011010111010011011111100100000000011000111
00101011001010111101010111100111010110110101011111001001101000110010011000110100110111011011011111101001011001100010001100011111
11111110110000011000010011101100001100100100011101101011111110101111010110100010110010101111010110101011101000000010010011001100
01010000100001010101111100111001011101101001111111111001000100111000010111110011001001111100110110101111111100011010000001011000
11000101100000101011001000001101100010001101000010011101011010000101011000010101011001100001111101110100111001101101100010011001
00101010010011001000111100010111001001111001011000110101000100001110001100011011011010101010100110001010101111000110010111101001
10101010010000100010000001100001000100001111011101010001101001010010110110011101010110100010100001111101111101011110000110011010
00011010010111010110000100000001001010100011100001001101100001100001000110010101100100111101010101110001001110011111010110100011
11000000111001100010001111011110000111111000001001011010001010011011010100010011000111001000111001101000100101010001000100100110
01111001000000101010101011010101000011010011010001001110011000011010010000100111101111011111001010101000101111111010001001001011
10001000010000001111101101110001101001110001001111101100011011101111100110001101001111011101111001100101010101010110011101000000
00111000010010010100111101010011001000101100111100101110010010001011100010000011001101000110101110110100111101011111100011111110
00100000001110011111110001101000010011000001011011010001000010001001001110100111111001110000011011111100100101100110111100111101
11110100011111011010001100101100000000000111011110010010100000100010001111010100011011111110101100111111111011111110010010001111
00100010101000111100011001110101100011010101111101111011001100010101010000010000011110000011000010010110011110010001110110001101
01001100011011001101001110001000010111000111000001111111000001111011011000010011010100111011001000000110111010101010010000001001
10110101101001100111001101010110001101001000110000010101010010100000111011011000100101010110001011101010010111100110000100111010
11010011100001101101000000010001001100101010110000001110000011100011010001000110101101010110101110010001011010000110110001010000
00111010010001111011100100001100100000100000010011010000110110010110111100011100100111010010000110101011101010110011100000010100
01001011000101110100100101000111000001110000111011110101011111001001011010111010010101011100111001010010101011011100001000110000
01011000001001001010011010101011111100110110110011001111011001000110111011111101110101001001101011010000001000110100101111100101
10000100111101111010010101111111011001011011101100010001011111001110000000010101100110000111101101111001101100110110110111101110
10111010110100001000100111010001110111000011110101100111011100011001000011011000000111010111000111011001000000011000100010001100
11100000010101000001110110011001111001110110001111100011001001101111011110101010111001000011110101001100000101001011010001100100
10110111111100011010110100000010111010101010011011011010001001011011110001110110011100100010101111000000101101111010111010000100
10010101110010111000011001011000011001011110111111011001011110011010110010011011000000000000111011100010110011101010000110110101
01111111100111100010101010000110001110111011111010001100110101010110100100010111001100010101101101000001111110010101000111001001
00001111100011100100000001010100111100010111100011100011110000011110010010111110000111101110111011110001011101110111010001001111
10000011101101100010011111001111000100101111001100000010011010001010001100010011000000001100100111011010010110101111001010100110
10000001100010000100011010101111001000110011100001000101110111111010101000111010011001011100001111000100100010100110101010000110
11110001011000101100110110011000001111100111000101000010111101110111000001000100100101001000011010101000000111101000010101010110
01101010001101001110010101101110101110011001101000010001000000011101110010101111111100111110100010100010110111011111001011100110
00011101110000001000010111010000010011011100010001011011000111000000110100111010011011011001000001110000110001101110011100000100
10101101000100001010101100001101110100001000100111111110000110111000001110101011010010101010001111111111100110100001110001100010
01110001101110110110100010110110110100011000010010000010111001001111000001100010010000101110011010011101100010001001101100110010
00001101001111100111100001100100110100110101000010001101000110110010011000000101111001111100101111101101101000110111110110001100
01001000100100001100011111100110100110000101101101010110100111111010101110110011010011110001100010110101000000000111111000010000
10001110010100110010101100111011101010100100001110001010011100010011001000110000010011110101001110011101011011011011000001110000
11011011111110000111001001100011001001011001110001000100011101110011110000101101110011001101110111100100000110010001011001010100
11101010000001011111011011000011110110110011010001101011111011000000000101110001101000110100111111000000010010110001000001111000
11101101110100001100111111010100000000000111110010111111100010100111001000010110001101001000011011100100101111011010011111111111
11100101010110100100100001011001000010101010001110111100010001110000110011000110110010111011011110101101010011001110001101110110
10110001011100110001101011100101110100000110000101000101111100000110011110001110011111111000010000101101110001000101101101001101
11100100001110010000010000011100001110100011101101011110110000101001100111001010011000100011001010000000010100001000110110111000
01110111101000100100110110011111111100000111010110011010001100011011101000011110100111110000111110011101100000011111111010000011
00101000011110110000011101000001010100011111011011100111010011011111100000010011101011110100000110101110110011011000111011101110
10101000001000101001110101111001100010000100101001100011001000000001001101101010001010101011011001111010101100001010010000011011
01000001100010001011101101001100000001010010101111011000110110011011101111100111101011100111111000110001001110100011111100010010
11001101110101100111101111111011100100011101010001101110001110100000111100001101011100111100001101100001110011110100000111101000
01110001011100101011100011100011011101010101011010110111001100100001110111000001000110100010001000011000000110011001010101000001
11010011011010100111100010001010001011010010010111110101000111000111111010001110001100010011111101111001011010110011000010100011
00110011101110001010000000010110001110110110001001111110001111001111110110111100100001111010111110111010111010111010100101110010
11001000101101000011011000111010101110101110001110000000110011101000000001000000111010110011101011111110010110010000000011011001
11001111001001110100010010110111010001101101100011100101110011101111111110011001010100101110111011101110001100010110000100001100
11001110010110010111010001101001001001001011110000110011100111100010001100000100011111101111100111110111101011110111100000111100
00011001001110101011100110111111001111101110011111011101101011100011100011011100110100101001000100110011101100111010101011101111
00101111011001010001110110010010101101100111000101100000000100101000010011001111010000000010010010111101111100000011010011011010
01010001100110000100110111000100011001111101100100110000011101000010010101100100101111001010001110101101110000011010100100011111
11010110110011100111110111001101110100101101010101110111110000000010101010010000000101111000011111100100110100100000000001101010
00011100001111011101111110101100000000100011011011010000001100011111110011001000000110010100101011001110011101000100000100010100