01011000110110011000000001011000111111101100011010011111110010010010111011100101010111001001000110010100011111011100011101000011
11110001011101001101101001111101011000101000111100110101010001110011111000000100111011101111100111100000001000100101101100101011
01101110000010001101000110010110111101100111110010011100000111101100111011011110001000110010110101010100011101011010010001100110
11000001110111111001011000100101110000010101101111001101000101111001000101000000010110101111110010000111011101001100001101011110
01000111101110001101111111010110010010000010110100110100110110010100000101000111101001011010101110100101111100010101111101110100
10101000101011011111100010001011100111100010000010101001110011011010111101010111110010110100010111100001010011000001001110100010
10110010011010100110010100100001000011001011010001111111001100000101110001010110000010001100100110101111100111111101001111000101
00111110111011111110000110101011000011011000101110001010010011101011000010000011110001111011111111000110100111111101001000011001
00110100010001010110010110000001010100010011011110111101111000101011001101011000001101010100011100010001000000000111111101011101
11100001011100101001011001010011101010000000110100001010000001110010111001101110011011000100001011110001101000101011010000001100
10100100010000000100010000001000101111001101100010011101111001010101010100001010011111100010101001010000001111101010001100010011
01100110111101011011111010010101110110100010110101111001001001010011110001100100101001100110101011000011111001100101101011110010
00011001000110001011100010001101111000001001000101000011010001000010001110010001000110000001000000001101101011111100110100100011
10100101101101010101000111001100011011001100101000010001101110001110110100101110000110101110001110001011101100100111101100000001
01100111110010000001001000010011101000011001000100010011001000011000111011000111010111010101000101010101111100011100110110100111
01000001001100000101110010000000010110101001101111001101011000111010110000001101000110101011100100111010000010101111100111100110
00000111000111100101010000111100101010110100100000110110011001111111100100010111010111110111000111100010001001100001011111011011
00101111000110101110011010111010011110000011111101011001011001001100101010010100001001101111011000000001100000011111001000001011
00010110010010110011001100101001011110100001010111010101001101000001101111011101100000101110001101000010010110110011001100011100
10110100100101110101111011001000000000011100001010010110101011000101011110110001111100010100101101010001110010100101000011110001
10010011110001000001010111001111101101111110010100100110111101001110001111111111110110101000000010000010011001110101000110011101
00000001111101011111011110001000010110110110000111110111100011010110010000000100011011100110000010110101101001101110111011000000
00001010010111010110101011111100010010111101011000000100000011001010101000010111100011010000101110100010111101011001011110010010
11011111011010100011011101100101100111101100110000100110100011001001101001011000001011111000001111001100111111111110011010111101
01000101010110011111110000010101100000110011101010010001000110011111010000010000100000111100100001001111111001100011111011110111
10001111010110010110100110001001110110111010010011011000101101001001010000001011000001000000101011011000111000001111000110101110
00100001110110011000011111110100010010100011110011100000001101000010000001000011110001001000010100011110100011100111010111001011
01101000110011111011101100010100011001000011000100101100100010111011110000000010111110101000111100111001101110110101000110111101
00111010001010110110001001111110010000011001100101101011010111110101000111010110011100011000111111001110011010100001100001101110
10100000011110011001010110100100101111100101110011001111011101001110000001110000011011100011011010111111001100011101100111110100
10100000100101101010100001010000001001110001111110010110001101111001001001000110000000010101110111011100011111111101110001101101
01001010110111111011010100001101011101001011011001011100110100000010011011000001100101011011111011000110011101010000101011011110
01011010100001010001000010010001110100011101111101101001010111101001000001110100000111100110101010010011110010110101011101110101
01011111100101100100111111110110000100001101101101001111000001000100100011001100001100101101011101011111001011101101101111110011
01000001110010111010011110011010110001101100010101011010001101001111000011111100110101011111100001101000101110100100011010011000
01000000011011110111010010100010001000101010101110000010001100110111111000100011010100110111001100011000011110111001010001101001
01010000100101110011111001001100010010111111000011101001101111111001101101101001010000100111100000100110111010001010000110111011
01110101100110011100100011011100101011011100000010011110011110101111011111110101000010110000000000000100111101011111000111110010
10001010101011001010010010011011110000111011010100001101001111011010100001110101010110101010001111001011010101101110010010101111
11111110101111000001110011001110011110100011000000011101100100100100110001110111000001000010010010011111001110000010111001000010
10001111000010011111011001011011010001010111100001010011111111101010010110010100010110110000111000111010000010001010011111011110
11100010100101100010111110111101011011011011100110001100111000010111011011111101101101000011111110101100111100010010100100001100
01101011010100110101010111000110101001001011111001111001100111000111011010011110100111010110010110011110100011101000110011010001
00001000110111000111011001001000110100010001000101011011110110011010010011111001101010101100000001001100101111011001001000011001
01111100111000010110001100101000110000001000100000110010111110100101100101011001011001001110110100101000011101100110000000110110
01111001011100000101110101110011111011000011010100111101101110111000101111100101111000000100010011001110110101001110110111001001
01101101011110001010111111010000000011000100010111111110111001110100011010001110011110110011001000001001110100000000110110101010
01011110011010110111101000100101010110101011100101101011001011001100111000100010000111101010101110010111010010011000101101101011
00011110010110110000011110100011101011100010101101010001000000000001100110000110111010001100001101100001000000100101111101000001
11100110010000110010000101111110110001101110011000000000101000100010011010001011010100011111111110011100011011011011011101001111
01111110001110111011110110000110101010100100000101100110111011000011010100100011100111010100101000000010100000010111010101011001
00111010000111100001011001011011111100001111100100011011000100110000100000100100110011100011011010001111110000001000011010110010
00001101011110110010011010011111101001110101011110100001000111011000011111010100111100111110101001100100010011100100010010110110
00010111101010010001110000100100100010100010000010111111110101000111010001001010001110011110111100000110010111101000100011011101
00001110000011101001110111010110110010100101001001100101100111001101101101010101100001100100000011011010111111111101110110011101
10111000001110001111000101110101100101010000100001010100101101000011111000001110000011011110110100101001001111000001000111000000
00010001101100111001101001011010100011111000101010011011000101010101011001001100001011010010000001011110000101111110011011111110
00100010001100101111111011001110010011111001101010000011000000111010101000000001011011111111010100101111010111110010010100001011
00101110011011111100100110110101111001000100010011101101100010110100110101100011000011011101010000111010101100011100110101110001
00101111000011001000001001100101100010100100110111011000011000101010011011110110111010011010101011111111001101000110010000100110
10100111100100001110111011110100000011100001101111011101100010010011100110111010010001110001101101110101010010001100001110100111
01111011011001010101011000110110000001110010100101111110110101101111011001010001000111001001000111011000111000110010011101110100
11001000010100010000011111101010111110001101100000100010101011100011100101111001100101001011100001010101000111001000110110111010
10010101101000101011111110101111001000000111100010111110111100110011001011011000011110110000110011000100001111110001110010110000
11100100001001100111110011000110110110001111100010000010000110001101001111010001011111011111001101001011010100010100101000001111
00110110011101010000110111110011001111111001100001101010010110000000110000100011001011000100011000010000011000001100100001001011
10100101100000010010011101100001001111001000101101110111101110001111101101001001100100010100000110001011000100100001011000011111
10111101111101111010011010010101111011000010001000100111101100010101110111110101001100010111011110011001100100100111010001000111
11000110110111001010000001000001111110110111111011000110100001011111100000101000111011101111101100110011100101010010000100001011
01000010110001000110011111010011000011001011110011001011110011010001001100011000100111000010000111001110011000101101001110111010
01100011100010011100001000111011100100100001011000110100010101101010110101100110111110010101001001101110010110101110101011101001
10100000101011001111101111000010100110101101011000010000111111000011001100010111111111001110101100101100101110101001011001011110
10000001010001100110001100010001111011101111110010010101110101101100100000001100111000111001010100110001111101111010111110010101
11010000110110110010011000100101001110110000101010110100111111111110000010011111101001001111001001100100110101011111111111001001
00001011001001101000011000101011110111111110101110111010010101000111110111011010100110011111000111110001010011011000001111111101
00100100111010001111010111001101101010110010011111010011011001111111101100110110101110010001011001010001111111000000101100001101
01100101100111111110101111011100101001100010010111100100000110001010011101000001101100001101101001110001100011111111010110110011
01001001011111110101110011001110110011011010000001101011000100111100110001101001011100101100000110010011011101011000101010110111
10010011010010000101110001001101100001110011010111100111100100101100100111110000101000101010100011101101111011011011011101010000
10111100101011111010001010110001101000100110001011000001111100111010010000100001001100111010000100101011011011100110100101010010
00000101001001010011100011000100100010010101101100011100000001010101000010111110011001011011000111000010011100100010101111011001
00111101011111111101111001100011101000100100011010000110111100010111101000111110101011110011000101010001110000000100110100010011
01101000111110110010110010001110111100110101001101100010110011001001001110011111011001001101001000100001010000101000110101110011
01011001101001101100110110110011111010001011001010010101110011101110000100000100011101010011011010001010111010110001001001100011
00010001101111000110011000101000010100110100001110011000101010111011101010111101100011110000110110101011111100111010111111000100
10101001111100101100111001111010011000100010001001011100100110100110110110010100101110110110111011001111110101010111000011010010
11100011100100100110111101110101111111101000100011110100101000001010001111101000110011001000001000001011000100011010011011011101
01001011011110101011100010010010111110010100000001110010000001001101000001000010101111110011101111000100110011011000010000000101
00110111111001011011000101101101110010010111000111000010111111000111111101111111110111111101101111001001000110110001110101011000
11010000011000000100101011110110110111101011010111100100110011110110110001100000101100001111000101110111011010110110000000101101
00000000100001011001110010100111111010111110000001011111111100111000101101001100011010001100110001000100100000001101010110100101
00110110111010001111000010000010101010101100110001000110100111010000101101110000010110111101110100111100010010111001001010011000
11100100011000011110111010101000001110101100010100110000011010011000000101101101101110011001011110011110011011110011111001001101
01000110000111011101010100110001111111110111001101110100101101011000000101101001001010010100011000111111010101010010000011100000
01101010100011100101111001010110100101101000110101111001100010101010011101011111000000001111100000000100110000100101111101101110
01101100111001110101110101001011111100000000000001111001110100110010011111101010000011001100111000111101011110000011010111010010
11101110100010010001000111101011000101011100101010001001010010010011101101101100110000110101100110010101111101000110100110010000
00101111100000001000010111001101010100101101011100111111001001100011000100101111101100010000100010101001101111011101111001011000
01000101010101010011000000001100010110010001001000101001001011100000101100110001011011011110101100111101011110001010100010110100
00011110001001101000010001010110100100000011001111010111010100111111000010101011000101100100111110110010010100100111011110110010
10010101111000100000010011011010111010001100000010010000001100101001111010110110111111000000001001000110010111000010100000101000
10101000001101101010011011100101100000101010011000000000100010011111001100110100000111010101110001010010011100000100110110000010
10000110011100111001001001010011000110011011010110110111001100100101101000110111110001011100010101000100111101100011000101000101
10100011010100110101100010000001011010011011100011110011000000101111010111011101011110111101001111110110001110100101100001110010
10111110101011010010010010111111000111101010011110110010101011011100110110110101110001010010100110111011001001001100001010001100
10111011111010011100100001000110100000011000001011100000100000100010110110111011111010111001100100001100010001011110100011100000
00000100111110101001111011010100100000000000011101000000100011001001110111110100011100111111011000110001001111111100101010100001
00110010011100111010001010001001010101001010111001000110110000101111110011110111000000110101110011001110011000001001101000101001
11101010110111001001001001111001110000100001000111110001110010110110111000011011111110110101100010100101101001110001011011110110
10111100011100101001111010000001100011100101101010011010111100101011110100001111010101010001000111110001001100100011111110010011
00101011111110111110111001011011100000111010110011110010111110110101000100010001111101000111111010010010100100001001011100101100
01011110010111101011000010010110000011001000101001010011110100101100100100100000010110100101011010000001110011110000000011111100
00110100100000101110111101101101011110101010101011001001100001011101101000010101110000100010000110001100010110110110011010010111
11000111010110001101110101100110001011001111111101110010010001100001011111100010111000111010001100010010010101001101010010011000
01010001100000100110111010001100010000111001100011001011011101101110110000010110101011001000111101001001001111001100100101111000
01000100011100000111111111000011011010010011110000110100110110111100101110110010100100010000001110011011001100010101101010111111
01000011000111110111110110100011111011101001110000111101100100101001111100111100101011010001101110101110111011011000110010010011
11110110010101011000000000001110111001000001100011100010111000000100010000111001011111101010011110101110010000000100001001001111
11000000011001011011100110100100101101100011110111001011101010101111111000101111110001011000110100110101000110011001101010010100
00000111111001001110111101000111001101000101011001111110011011001000000110011000101100001100111110101011111011111011101010101110
10001100001010101110000000001001000010111000110000010011001111001010010001011001110111001010000110110010010010111000110010000111
01110100000101110100111011100000000010011010001001000011100101011100011010000001000110001111100011011011000000010101000011011010
10100110110111101011001111100010011101110100110010000100110000100011011100001110001001011111010100100111100010000100011110101010
10100010111110110100011111111010001100010011100110101000001011100111001011000111110100111001110110010000111100100110110110111000
01010010011001101110001000111111111001010010110110100101000100111000011001010111101101000101111110100100010000001000110011010001
11011011111100011011000000010111000100011111101000100100010111010000110010111010101000001011000001110101111100101000110101110101
00011101011100000001011000101100001101100100010001000100110001011011010101101101111010100011000011001101011010110110100110100111
00011001101010110011010000010100110010001000011001111101001011101010100011100111100100110011000001110010010011110111000110100001
10001001001110001110001011010000111110101101000010110100111010001011010001100111110010101100000110000100111111110000100111010010
00101110110110111111101001000100011111001100011110111011011001001010110001000110010011011101101001111111010000101010110111110010
01110101000111010001010101111011011110111100101011001011111101000101000000111011010100000100100000010010101000100110001111100101
01011011101011001011011100010010010011110001101101010100111101000110011101000100100000111111111111010010010111010000011011110000
00010110111011101100000010001100010010010001010011110011100110100011010101110111101011100101111111001101001010110010011000010101
00110010110110001110110011010101100101000111100010111001111001011100000100000011101110001001110000000111100110100001100101011100
01000000010000111111001110000100101110011011101011100010001011011001001101111110101010010110101101110110000101101101111111101011
01101110010111011001101001011110010000110101001011100100110110111010000000010000001110100110100101101110110001001001010111011110
00101100101011110010100101110110110111110001001000011100001000110010101111101101011011001010100000010000111101010101010101111011
10100001101000100110101101100100010000101000100110010010101011111100100111000100010001011101101100010110111001000000110000011001
11101100000110110111100100111100000111110101001001111010010000101000001101000111100101101001100110011001001110101011100001011100
10011100100110110011000110111011011001011111000100000100101100110100011111101000111101110110100110010010110111100010000010100101
01101000111000001100110100001001110010100011011011011000001010000101101101001111111110000101011100001110101001000100111110101111
11010010000111101000000110100101100101011100001011000001111101001001001001001001100111111101000100001110101001111010011100100010
01100010100111000000010100000011111110110010101111011011100111100111010011000100010101010001001100100110010010011010010010011010
00100000110111111001010010010111101101111001000001100001110110010101110000011000101000101000000001010011100000110110111010011000
11100110111001011010100110110100000011000111000110000011111011010010010111110110101001011001001001011101010100010110111000000011
10111111111101010100101100000111000000001101111111100111100001011011100101101111111010000100100001000101110110110110010011101001
10110100000010111101101111100001100111001000101110111100011011011000101000011110011101001011111010101010100111011010000111110011
00100010000000100001111101011110011100110111101000101010100010010100110110100000011100000011000010111110011100100001011011100101
10101000001111011011000110001101011100001101010101101101010110001010000101100101000011011000001001111100001000110010100010000110
00010011010101001000010110100100011001001111010011101001101000010010010000000010101000000100010110101010011111100111011010000011
01010010010011101000110101000001111111001101101111000010100111100000011010011111001100100110010011001110101010010111011000101100
10000111100110010010001101111100110000010011000101011000011101011110100101101010111000011000111101011010111001001010000001010000
00100001011110111011001011000000100111111101111100011100001111010110011111101010111111000010110010101010001110101111010101011101
11001111000011010100100011110000100000010011100101011110100110010101010110111011101111101010000111100111001010111101011101000001
00010001100011110111010100110101010001010111101100100011111100110110011001010100010000101111010101011101110011000010011011000100
01110011011011000111001001010111010000011000011101001010111011101001000010011101111010110010001001101100100111010000000110110011
11010011001111101001010010111000101001001101100001010000110101100000100101011110000011000001000001010100100001010011111001011111
10001010010011111101000101111110101010110110001000001101111001110101110000100101011101110001001001000011100011100011101011111101
11101011101110010001000000001101111011111111111101011010100001111010000110010000100011000101000010110011100011001111101101011000
10001101111101110001010101000111110010011011111000000010011100111111010000110111011100101100011000111011010011010001101100100011
01011101001100011010100011111100100001001111101110010011100101110000011100101010100001001001010001100000101100000111110101001110
10010000111110010110010010010001001110010010100010100000111110110100100100111001000110001010010110010001011111100111111111000000
00111101110100001001001110101101010101110101010001111111011111010010010011111011000111010011110101001101101011000010010111011000
00001110110110011100100011001111101010011100110011000000101100011011011000100111000001111011001110000100010010111000000101001010
00000110101110101101101001000110110011001110000010100110111010110100111110000101010110100001111101000110111001000110101100011100
01000011100001011000101011110111111101101010110011011110111011111000110110001101001010000111010100100001011000111110101101101100
00011011101110011001010101001100101000011110000010111011011110101001010000100001111001001000010011010111001110000011110111010010
01110100101010000000000000001111111110011011011111000111100110011111101001100000001110000010001111110011011000011010101011100100
10011000111000110001100001011110010001110010110111011011100010011101100010101001101010010111101011001010110010100010011110001001
01011011110011101001110001110111010000011011001110011110011011011011001010010101010100111001001110101001001000011101011010101001
11000110101100011111110010111001010010111111100011101110010100010110111011111000011111110100010100101101111000111110100001001000
10000100001001001001100011101101010010110000101111001010110110110010010111011111111100011010011101000100000101000100001000110101
00111110000101001000010110011001011110100101010001101001100110100000111101100011001010010001001011011011001101011101011010000011
11011101110111000010001010011101101011000110011111011111110001101101001100010111001010011100110101000100111111100011001101101010
00010110111100010111111111010100100001101011111110001111001011001011011100001011011011110101111000111110011100110111001011110010
10011101110110101011000011011011111101001100000100100110101011001111001100000110011100100110110101110111011000100100000010000111
00000001100001001110010101110010010011001011011010011110000011100001001000111010100001101000101111001100101010111000101100101100
01011011011010100101101010111101000011001101101011000001011110001010101001111011111011011101011110010000011111110101010001000110
11011011010111111100000011011010011100101000001001101111100100001100110111111100100100001010101000110101011110101000001000110011
00101000000000000110111110101110000100010000000110000010010110111111101100111101100101101101101011001001000100011100110000100001
11011100100010000010111000100000001010101001101010001111010100111100110111101010110101011111010100111110011100001011111110000101
01010110000000111110111110001010000010000111111100001110101010011000000110000000110001010011000100101100000010101001010011001110
01110110100010110111011100111111001000001000000011101011010000110100100011000000101010011010110000101011000001011000110101111100
01000101101100001101101110011111110101110110011010011000010100010010000001110110001111100000000010001110111110011000111000011111
10000101011010101100110011001110101110000110110001101010001011001101001101101111110001011000111111101010110101011101011110001000
10010010111111100000100100111010010110001001111010011100001110110001110001001110001110110110001001001011100110011001000101100001
10011100010000101100110110010010100100010000001101010001001011111110110000011010011000111100101001011101101000111110100100101001
00001111001010111011001011110111001101001010110111001000100001111001010101111000000010100010111011110110011101000000011000100101
11011110011111111111111101010001010011001000110000011011001000010100011011000111011101111110001100010000000001001011110011100100
11101111000110011000000000011011111111101000011110110011011001101100000111110010100001000011000110100111010000110000000011111110
11110110100001001010110000100110110010111101111111010101100110101001100100011010101110011000110100110010001101110001101100110011
10010010011101001010000011010100010101010100110000101011011101011100100010111001001111001011110111000001011010011100100101000100
01111101001111010001100110000011100010001101111111110000101100101101010011000101110100000110101010111100010101011101000001110010
01100100000011110101010101011011110111001110011001010110101010010001010111001011010010000011110001110110110000010110010110000110
10110010001100001111111011101101001011111110001000001011111101000101110100100010010001100001100010110101001000001011001100100110
01000010011100111001010101110011111100100000001001100111011010001011011100010111011110010101011101100110111001101111001111101101
11001000001010110011110100100010101111111110000110001110000101110010000011011001010001111101101101011111001100001001010010100100
00010101011011100100001101010000001000001011000001110000001010111001011110011101010010111111000011001010110000001100111100101101
00010111100001011010011010110010001111100001001110111100110111001011011011001011110011011011101100000011101101111010011110011000
11001111110010011000011101011110111101101101011101110101001010100001110100110001001010100101011101101111101110011001101100011010
10111011101001111001100010100001100110011011010011111111011101111111110101111011010011100001000110000000011100010011101101111000
01100100110000110001111100100000000110101111110010001100100101101011111110101000111010001011001101100100100100010001101011110110
00001000110100001101011010011111011101011100101100100001111101110101101010101100110111010111101101011011011110000111111010001001
10000010110110000001010001001011111101101101110110111100000001100011100011000110011111000101010010110001111010110110101010101110
11110111110100110110000011011010101110101001100010111100011001000001001011101110100001001110010110011011100110011010101001000001
11010100110010000000101101000111011111000100100110001000100000011011111001110010100101001100101101111001111110011110110001100000
11111010101011011011110101110011001001101011010101110101001011001010101100011101011100010011011011100001100101101110110101001110
10010001111011000010011110100010010010011010000100100011010110111010111100111000000011000100001101000000000010111000101101101001
10000010100000001000101010001101100111110110110001011100111001111001001110010001101100110101001110111110101011110101101001101101
11101101100011000000111001110110100110010010100110011101101101011100101100101101010110100101101110111111111110110001111111000100
01110001100111111101100011001100110011101011011110000101111001011111110001100001010001110101100010110101011111101010100000101010
01000011011101001111010001010001110010010001000101110000011000101010000011010001111000010010010001111110010011111010110111010011
10011011101110000101010010011010111011110000101010111000100001110000000111011111000010011110111001011010010110011111001011011000
01111001101100111111110001010110001111010100010100110001001000000010111010110101010000011000010111110010110111011001000101001000
01010110001101100111111101111111111101111000101011100001010011011011111010001100000101011100111111110111101111110011011101110101
00101111011100100100111011011100000100110111010110110001010001100111001010100100110011110000011110110111010101001000010011010011
11001101110100100011010000000110000101111101100111101100111111011101100101111011100010011010011101101101000101101000000011001110
00010011011011101011000010010011111001001101100111100110100110000010010100010000011111000101011001011100001101011000101111111111
00101101001001111011000101110111111101100111001110010001010001010001001011011101111111111101000010010100101110111111011001111101
10001111011101111111100001110110101011010010010011100110011100010001100100001010000100110111100001011001000110110010011000001110
00101000100110110010011000111011010101000000101010111110001110110000110010011010110100011010110111110101111010111111010011100000
10101001001011111000001000010101111010001001101000000111110110110011110010001010000110011000000001100101101100110011111000000110
00101010100110110111001111111110001111111011000110110111110100001101100100011000011000100100111111010010110111110111000111011101
11011101101101110000001111100100011110001001011010001101000010101111000111010010100000000111101101100001010011001010100100101010
00000101011010111011011111011010000001000110100010101101110110000101101001100110011011010000110110110000100110101110001001100101
11000001111101100101000111110011110101111010001011011110010001010101010000011110100110111110110101101110101000101000110110100111
11100111101101010000111100001001100111010001101100010000111001000001011110010000000110011001011001010101111111110110001010001101
00000001110100000111110011001111011100111001110111111101011010001011100010011110010001110000100100100000110001010000001100010000
00000000011111110011000000100011011001001101110000001000110101010100111110010010111000100101000110001010111001010001011001000110
10100010010011111011100100100111000000110100111010001110000100010010101100101100000111110001010010110110001101001101001111111101
11001101100010010110011010110000111011010101100011101001110011001110010010101010011011000110110100110001010001011110100110000111
00101100001011001010000001001010110101100010111100010001010010001010111110000010010010110011011001000110010011100101100001101110
00101011111101101011101101110000011010110010010101111101011000111011011111111000000110100101100001010011001100101101010011100000
11010000100101011100110010111001101101111101011101100011011010111111111000110111000100010011100010001101001011110110100110000010
01010010000100001100110110000001100000110000000011011011100111111110100001001111000010100000101000110101101001100001011101100110
01100000110011110011101101000000000101011101101100011111001110100111111110101101011100011000001110011011001110001000010011101010
01111110111000001101110011010100000010011100000111111110111101111111100001110010100100011111011110100110000100010000101010101001
01111100011111011101111110000111011000010010000000111010001000011000110101101110110001010011010100000111111100000010110000111000
00001111010110100000010100101001101000111100101000101011111001011100111011011111000101010100001000110011000101000001100000110100
01001000100001111011010001010100111000001110111101111110011001110110001111111110010010101000110000101100011111011010010110011111
10101110100111011011101010110100110011001101011110101100100100101101111100001100101000011110001000110010010010111100010010110001
11111101000100000000000110001100010010101011000010000111000001011001111110111000100011001011110010001111111000100101111111010111
10111111111011010000001101110000001101010001101011010010001100100101010000010011000111100011010000100110111001010101110110101100
10000111101100011010000110001101011111001010100101011110100011001100001011110110100000111110110100010110110110000100100110000101
11000111011111010000110000010111101110110111101101000001010001001111011000110100001110010001000111100100101010101101101100110011
10010001001001010010001010011100001011010100001100001010001010011101000011000101110001111010011010100000100111101000010101001001
11101111111001100111110111101111001101111100110000010100101001011010101011000000110101100010010001010010100001000001111100011100
00101001100001111101001010010010011111111000110011110111100100101010010010011111000010100111111110100001110111111010001001000111
10011000001000110110110111000101011010100000101011111011010111101110100010011000001110011011010011001001011010011100011001110001
01000011101111010110010111100101101111101111000111101110100001010000010011000101100111111100000011001000101000011001000011101001
00001101100110010011111110100111001011111010100111001010100111010011001000110100000111101100000111100101111100110000100011100011
11111000001111101101011100001001111100000100011001010111101111111101111011100001100000010001111100111010111100110101010010001010
10110001000010010000101101001100111010111100011101011100000101110110111000111110110101101000100100101011111011001011111101111101
01110110100000010101111011100110001110011111110101100010011011110000001101000011111101110111101011001000001001011110011000110011
00011100110000001001001011100101100011111110111010111101101111111100100110000000111001101010001010111110100101011000000110110110
10110010100001100011011000001001110001001111011000000101001100000010001011010111100101111000111110011110011101001001110011101111
01101100010000011001110001111001000010101010111111001111010111000100101011101011111000011101011101011110001100001100010101100100
01011101101111001100000010111010111101101101110010100011001010110101001010111100011011101001001011110110101000111010001101111010
01001110101000000110001010101110001011101011001110110010011111011110100001011110110010010111001110110110101110010001110001010000
11001000100001101011001101110010010000010011100000111011000011000011001110010001111100111001000100000111011101110011101111010000
00000001001101110111000110110000110101011110010110001110110011011111010111110111000101000111001000010100110101000000110010000011
11010001010110111100101001101010010111000011011110110001000100111101101010100001101100101000100001001001011010111101001011010011
01010100111010110001001000101001111001101011110101000010101001001000111000011011101100011010000110000110101101111101101111001101
00110000000110001010000111011111111001000001101011010110111110010111110101010010100110010110000101111000111110111100110010100100
11011100111010001000001010100100101010101110010000110100110010100001101101001111110110001010010001100101110000111101000000010111
10111111011110100000100010110100110000100010011101111010111101001011010110000111011001010111110001101110000010101011100010100110
01111111100110011010000011011010010110110110010001001110110100010010110001010111000111010000101000110101100100110010010001100101
10000001100100011000000110001000111100101101101110110011000100010010100111001101111100011101001001010000110111101000011100000000
11011010101111010101101000101001001010100100111110010000111001100101100101101011110100110111110101010011110111011100101010110100
01100100110001100100011001011001000101011101101100111100001011111110000011010110001000111100000001110000100001011010101110101100
11001101110110101011100101110101110011100110001101111101101110010010100001110010111100100001101111001010010010101101011000001011
10011101000111010010101101000001111011111000000100001100111110111110110010100011001100100101101110000101001100011100000001010001
10111000100110000110001010111011011100111011000001110011010000011111101001101100001110101001111001100000100001110111111111110110
01110101001110110001010010110100101010000110010101110010011000000101011110011100101011001110101000100101011101101011010101001011
10001111011110110001110010100011111111000000101001101101100010001110000011110100000111010111010111010100011100011101110010111000
10011101100100011111010101101110110001001000001000101111001101111010111111110111000001110110011010001011011010011101000011001000
00101101010101011111101010101010001110111011010000111011101101101100111101101101001010110110111000111101101010010010100011011011
01011110101000111101101000000011110100110010110000010111111100001011101000101000110111101110000110111100000101010011110111111000
01011001100100001111000001101100010111101111000110100110100010111011100001010000100100001111000010101011100000000100000110000111
01000010010000101110010001001111010110010000001011101011011000110010110001101000110001011010001000110101011100011011110100100000
01011000100100000000000101000010111101101101101101011011010101111101100001011101000010110100101100111111010010001000011010110010
01010101111111111111111110101001001101001001110000111011011001010011100100101010111101110011011000100000100101100000001110001110
00110110011001100010111111111111101101110101001101101011011100101000011001001111001111100001000001001100101100011111101111110001
11001100010011110010101000100000101000010000010110100001001110110001111000011110100110101010101011000010000100011010111001101001
11010100100100011000100011110011111001110101001101010010011000100010110011011101111011001111110100011111111000000100100001011101
11100111001100110100000010111001010100011010010111000100011010010110101111110101010011011010010001111001101101011001001010111011
10101001110110011001001110110011011000110100011011110110101010001110100011111111100100011110111100111101001110111011100100111011
10000110100011101000111010110011111010101111001101100011101001010111101000010111111010000101011110110111110010010001010001101100
00100001001111010100001101100111001110110001000000011100010001101001011100101010101100010111001101000010011000011000111011011011
00011011011001011110001000101101001001101101011011100110000001001000000101001100100101000001000101100111000100101000001011010101
11000100110100010001001110100010110001010010000111110100110001110111000111010100101000000000111111111101000110010011000101000010
00011110011111111110001100111101111111111110010001011110110111010100011111111011110110100010011101011100111001100010111110101110
01111101000001111001010111000110000010110001100011000110111101000011010110000101101000010101110011101101000000011100001001000011
11001110101101100011110001100001000011011001101000100000011111101000001000011111011000111001110100011100011111000000011100101000
11010001110100110001111100110110111101011011110000001101000100111100011110011101111100100111000110100100001010000110110100001011
10000001101101011110111001001000010111110011101101111001011010111110001010001001110011001010001011000111110011110000101010000111
11100110010010001110001110111011011101000000010101110101000101001000101110000111000110010010111101101110100110001000000100010000
10010101000110111001111011001000100100001111101011000000011110110100000000111101000101011001111000001011101111000110111110110010
00101010101100100010011101011111001000110001010011000001111101000110110011110001000100010011011001000110101001110011100001001011
10000011111111100011100000000111111101011100110100000000101001100010100000100011110011111011011100011100100101100111110101100010
10111111001110100101011110101000010001010011111100101111110101011111100000110001001001110101000111100110111111010110100111110110
01010101101111110101011010100011000000110111011000100010101110000101110110111100100110010110100110000010010001110110011101011011
01100111001010111111010010110001001011000101000010000111011001001011011110110001010010111011101110001001100011110001101011100011
11000100101100011111010111100010110111101100110000011101110110110101111010001000100011111111010011100100110010011111010111000110
10001010010111110011101000111100101110011100110010101011101000110111111001000100100010011110011010001001101011110111111110001001
11101000010101100100100001101000100111101101110000010000000101010100111100000100001100000100100001100110000000010010010110100000
00110101011111001010101111000111110100111110010111011100000001101110011000100101011010010011101001001010101101001001110101100111
11011010000001110111001111010011101010101001010100100111001010000100111101000101100001000110100001101101111111100000100011000011
01110101101101110000010011011100010011011011010011011000111100110000001100100110101111111000000000110000110010000100111000101100
00011001010000111001000001000000101010110100110100000100010001110100011000100110001111001000100101010010010110000010011110110111
10001101100111011000000000000001001011110000100111100110110010001100111111001101000110110110000100001011010011001010101101110110
10010111011111001001100001101101101110000011110001111010010001000101000000111010010101010010011101111010000101001000111110111100
00001100100000010011100110011111110111000100010110010100110001001001111100110000001101001111001100111111111000110010011100101010
11011011010010100110000001000001111100001100010000100000010001100111000011110111110101011001010111101100011001100010111101100110
00101110011100001000111101101010001111100011010111101101111101100101111101010010110000101010001111011110011001011110101101101001
00010010100100101101110100001111001110100001010000010000011110100011001001111010100001100000101101011110001010011001000010101110
00001010010011001001110010110110110110101001011011110100011111011101101101100000011110101110100011111001101011110001011101101011
01110100001011001101111111101100110110010111111001101100010110000010010101110100100001010100100000111110111011111010011110100100
00011110100001110011110101001110100001100101100010011101101010100010101100000101110110111110010011010001111010001110010010000101
00001000111001100011101111000101111000111010110100000000111101100101100010011101010001001001011111100110011100001000100110010110