11010101111101000011001000001101101000101010111001000101101100110011011100001001100111111001100100110010101001100101101010100110
01111111011111010101010000001000011111010000101010011000000011100011010001111011001000100010111001100010101010101010110111010000
01111101100110101101011101010001000000101110111000011101001111101101100111100000011011111110110100110111010011110010011100010011
00100000011001101010110100011001000001101011101100110111010000110100111010000001001101010000100111001010010011001111011101000111
10011000111001011100100001101111110001011010111111011001010101111111010110011111000100111010101101100010011100101110001110011100
01110101011101111100011100110001011001111101010101111111011101111100101001001100011000000011010001111111101111101011101100101110
10010111101110101000010110010011000010010111101010010100111111110110100110101001000100010100110001100101100101001000100110100001
00011010101111101101010010011111111011100010100100111001100101100010000100010010011100011110000011010111101110101001010100000111
00001001101110001011001011100111110011000110001011100101000011111001100101111110000101101010110111101100111111111110111001010111
01110100111101010101110110011101011111111101100001011001111101000110111011010001001000101000110100110110111000101011001010000001
01010010111101110100110010101110011101011011001110001000000110011010110000101101010111111010000100001111010101000010111111010101
01100100110101011011000111101011111010010010101101001110010001001111111101000001100001010011000010101000010000101110001001001111
01100011100000111001100101111000100011001010110100011101001000101011000111001011000101100110001010111111110011100010110100000000
10110001110010110110001000100101000001101100011111011110011111000010001000000111010010000110110100011101100101110001001011000011
01111000000010110000001010110011111100111111000101010110100011110011010100001101110101100100111101101111010100110010000101110110
00100001101110001111111100011111110111111010010001001010001001001000101010110110001101010000000010100001100110001001110000111111
00001100100000011010010011111100010001000111011010100101100001100010110110101111111010100110110010010001101101000010110101001000
00110110111111010101110000001110011111100010000110000111000111001010001011010011001000110110111011110110010001001000010100100001
01101110110011010011010000111100111001011110001000010000101101011100000101010000101001100101010100110010110010000001001100110000
00111110110111011101111001000100100101100010100101001100010001110101011010111111000000001111011111110110010011001010101011110100
01000100111100101010110011001000010101100011011011101111000101011010010010111010110010000111011010111000000011101010101011100101
01000100011010111101001101001000000111101011111001110110101100110100000011000100000110111110101101010101001011010001111110011100
11101101111001111000000101110100010100001011010101100110101100001101010101000010111010010010101100011000101101011111000100100111
01011110001110000011011100111000010110100000000111001101110111101101010110001110100001110000100001001111111011011111011110101110
01001101000110010101011000010010100110111111001001001010110000000011110000001101110000110011111010000110110101111001101110011001
11111010001000100011100010000101100101000011110101101100101110111111110011110011101010000111011010110100000100111111000000111101
00110110000111010000001001111001110110010010100100010010000110001111011000100000010101111101110011010110011010001000111111000000
11000111010000101101011110111001010010011111100010101110110000111100101011101100001000000101010010100100111000111011011011110101
10111001110000111110110011111010101010011110000101101010101011111001001010101101001101000101001101010000111110011110111111000001
10010110001001100101000100111101100000010010000100000101111101010111100010001101010011011101101010101000001011100101110111011010
00110000011100000000000100010001001110111111011000101110110011001111101001100110110110010100011010001110001110010001001100011101
00100010010000010010110000001010110000111011100101111101111000111111000010111001100110010111101000111000001010111100110101110100
11001101111011100111011011111000011010001011101101011010100000011001010000110101101110010100110100110110111001110110111110101000
10110111100010010111011110000001010010111010110011010101101011110011100010101101000010100001000111101010010000111000100100011100
01110100000110000111010001111010111100101111101101100000000101001110000001110100101001000001010110001011110101101101010000100001
01111010101001100011111001001111110101001101011010000010111010011101000001011010010101011110101011000110111101111000101110110100
01100000101100110001000101100011011010011011101100100001101111100110010000000010010110100010110011111111010011111101101011111110
11010111000100110111111100001010011010001100001010001100110100110010010010110111011010001011011111000100111011011100000101101010
10101101101100001001000001111001011100011011011101100101100000001001011100111011110101100110100111001110010010010111100100010100
10111111010010011001010100001111000100000101101110010101111011011000111011111000111110110100000100010111000100000010110110001010
10001010011101100101001011110111000111110010010101011010001010101101101000100111100010111101111111100001110001011001101101011100
10100111011010101011100100001001001010110110111100111101100110101000010110011100000001011001010111100101110101100001000000001010
01111101001001001100001011111011000101010001111101111100111101111110010110000010100111010111000100001101111011111011010000100100
00110000000111011011011111100100001001000110000001011101111001111101000000011011100111000011010100001111010110111101101100101000
10110110100001001100101010010100011111000001000001001110110101101111001001011110010001010101100010101001110001100000100101011100
10111110010111110100000110010110100000100010111001011011001001000011011110100100101110100111110110011111001000111010000111110101
01100100110011100100011010111100011011100110001011010100110111110101101100111111100100110110100000110011110110100101010011100000
01101011100010100010110100101011000001000000111111111001101001110101111000111001000011001111001010000110000000010011011111100010
00011011000000100001111011110101011110011111101100111101100000111000110100100111010011100011110001000001011111001011000100010011
01111000001111011100100100000011110000001001001010111101100100111110001100011001001001011100110100011100110110011011000011101010
10101000000010000111101101110100001101010100110101100000000011000101001010101101110011100010100001001101001100000010011011011000
01000111001100011101011100100101010010011100010011111111010111000001000011100001100001001101110011001001010001100011100101011000
11000011100110110011111100011111100000110111101001110100111001111011000011110001111101110000010110010011010110001011000110100000
11101011101001011010110001000100000111010010001001111000001100000011000110011100010111110101110111111001110100110101111111010011
01110011101001100000101100001011011011011111110011111000011101110001111001111001000110011000101101110011111110110110010011000010
10101110000100100100101010011001110101010101110000101000000101000110101110101011010111101111110101001100111100010000000100011000
11000001010100101111010111100100011010011000111010110101011110111011100000100100010101010011100101000100011010010100111001001110
10110100110000000000010011100100110100100010001001011100001100101111100101000100101101111101011001111011010000111000101111010111
01010101101100110101011010101110101110100100011011101110000010000101000010101010111011100000011110010110110000010101001100010100
11011111101001100001111100110011010101011010101100010101111000100011011010000011111010001011100111010111011010111111001001101001
11111000111010110001111001101111101111011111110010111000011100111010100111111100110000011011011000000110101001100101001001010101
00111101001010111001000010000000100100110011110010001001100100011101110000011101000010011001101011110100111011101001010010101101
01111110000010000101001101111011111101001100110011110101101101010001010011000100011110100001111111101010011110001100000010011011
01011101111111110001010010001111101101011010100011001110100101100010001000100000111101000010100011111110010011111111000001001110
11110011101010011010111011000010110100110010011010001111001000001000110000011001101111010011100101110110111110001010011001010011
10011000000111011111111101101110101011111001000110011101110010100110101010000000110011111101000101000010111011011001001001100001
01111111011010100111111111010110111000101011000110001111010000001011100000111000011000001101001000100110011110011010110110100011
11101101101000100011010111011110000001101001001000110100101011010111101111010011001110001010011101000111010110101110011010010101
10110011111110100110110011010111000101100101001010010110010101101001010110011111010110101110001000010011000100010000011010001100
10011110001110110110101100111110011110100100011100000011110111001000110110111100100011110110010101100011100001011010111011000110
10111100100011101100010111001001101111001101011000000001011010001011010011110001000110100011000110101001101011111011011001000110
00011110101100100001000111111100011001011101010110100110001110010000011111110110110101000101010010000111000001110111001011100011
11100010010110111001011001100111011110001000011101100001011000010011001100101111110010110101100101011001010011000100000011010111
10011001010101111011011000000101110011111001000001111000011101101100110001100111000100000000010010011011111101110110000111000100
00010011100101100011100000111011111010100101000110111100010100000010111111011111111010011101010111111111001110101001110110111101
01000110011000101111011101100101010000000011010011011110010010111111011100010111111011100010000010100001010011000110101000100010
10111001110111000011011011100010001111111111100001100001110011101001100101001100000100100111010100001000101010110110101000111011
01111010100010010110110111001101101000100000000111101011011101101110100111001111100000000000101001011001101010111010011110000000
00110001100111110100101101110000100100011001010100011101111100010101000011010101000011111001011001111111010010010011010001100101
00101001110100110110010111001100100011110111111010001000001111100111110101110101110100011100100000101000100011100011000110101000
00011101011111100011001010110010101100011100000001111001010111100010011100101001111010101010110100000111001011001010001010011101
00001000011001011001000010101100000111110000110101000011011110010010110101100111110111111010011000100010100100011011110110111111
11010110011000011111101100000101110000110000101010001001101100101010101001010100110001010011110110001110111101000011001010110110
00001111100110001111110110010110100110101110111011010111001111101000011000011010100111110000100111110001010101010000000111011110
00000011111100001101000101001010111110100001000101111001010111000001110110100111110010100001100010110010001001011111001001001011
01101010101100010111011101111101101001110011101000110010001000000101010000101110110000011111101111111100011010111001101111000101
10011100100101101011011010101011100000111010100000011100101010111101101100101010100000111111110111101001110111011100000011011100
11101100110000100001000101110001011000010010001101111100111110101111000011111100101110101110010111101110101011111010001010101111
01011010001110111100010111011010001011000101010001111100101001001010110011010001000111011000000011110110000000010101001011011010
11100011011010111000011111110111010100111011111111011111100011111000010000101010100000110000111010011010110101011110100100101010